
// This is a TensorFlow Lite model file that has been converted into a C data
// array using the tensorflow.lite.util.convert_bytes_to_c_source() function.
// This form is useful for compiling into a binary for devices that don't have a
// file system.

#include "sine_model.h"

// We need to keep the data array aligned on some architectures.
#ifdef __has_attribute
#define HAVE_ATTRIBUTE(x) __has_attribute(x)
#else
#define HAVE_ATTRIBUTE(x) 0
#endif
#if HAVE_ATTRIBUTE(aligned) || (defined(__GNUC__) && !defined(__clang__))
#define DATA_ALIGN_ATTRIBUTE __attribute__((aligned(4)))
#else
#define DATA_ALIGN_ATTRIBUTE
#endif

const unsigned char sine_model[] DATA_ALIGN_ATTRIBUTE = {
    0x1c, 0x00, 0x00, 0x00, 0x54, 0x46, 0x4c, 0x33, 0x14, 0x00, 0x20, 0x00, 0x1c,
    0x00, 0x18, 0x00, 0x14, 0x00, 0x10, 0x00, 0x0c, 0x00, 0x00, 0x00, 0x08, 0x00,
    0x04, 0x00, 0x14, 0x00, 0x00, 0x00, 0x1c, 0x00, 0x00, 0x00, 0x90, 0x00, 0x00,
    0x00, 0xe8, 0x00, 0x00, 0x00, 0x04, 0x07, 0x00, 0x00, 0x14, 0x07, 0x00, 0x00,
    0x0c, 0x0c, 0x00, 0x00, 0x03, 0x00, 0x00, 0x00, 0x01, 0x00, 0x00, 0x00, 0x10,
    0x00, 0x00, 0x00, 0x00, 0x00, 0x0a, 0x00, 0x10, 0x00, 0x0c, 0x00, 0x08, 0x00,
    0x04, 0x00, 0x0a, 0x00, 0x00, 0x00, 0x0c, 0x00, 0x00, 0x00, 0x1c, 0x00, 0x00,
    0x00, 0x38, 0x00, 0x00, 0x00, 0x0f, 0x00, 0x00, 0x00, 0x73, 0x65, 0x72, 0x76,
    0x69, 0x6e, 0x67, 0x5f, 0x64, 0x65, 0x66, 0x61, 0x75, 0x6c, 0x74, 0x00, 0x01,
    0x00, 0x00, 0x00, 0x04, 0x00, 0x00, 0x00, 0x98, 0xff, 0xff, 0xff, 0x09, 0x00,
    0x00, 0x00, 0x04, 0x00, 0x00, 0x00, 0x07, 0x00, 0x00, 0x00, 0x64, 0x65, 0x6e,
    0x73, 0x65, 0x5f, 0x32, 0x00, 0x01, 0x00, 0x00, 0x00, 0x04, 0x00, 0x00, 0x00,
    0xc6, 0xf9, 0xff, 0xff, 0x04, 0x00, 0x00, 0x00, 0x0b, 0x00, 0x00, 0x00, 0x64,
    0x65, 0x6e, 0x73, 0x65, 0x5f, 0x69, 0x6e, 0x70, 0x75, 0x74, 0x00, 0x02, 0x00,
    0x00, 0x00, 0x34, 0x00, 0x00, 0x00, 0x04, 0x00, 0x00, 0x00, 0xdc, 0xff, 0xff,
    0xff, 0x0c, 0x00, 0x00, 0x00, 0x04, 0x00, 0x00, 0x00, 0x13, 0x00, 0x00, 0x00,
    0x43, 0x4f, 0x4e, 0x56, 0x45, 0x52, 0x53, 0x49, 0x4f, 0x4e, 0x5f, 0x4d, 0x45,
    0x54, 0x41, 0x44, 0x41, 0x54, 0x41, 0x00, 0x08, 0x00, 0x0c, 0x00, 0x08, 0x00,
    0x04, 0x00, 0x08, 0x00, 0x00, 0x00, 0x0b, 0x00, 0x00, 0x00, 0x04, 0x00, 0x00,
    0x00, 0x13, 0x00, 0x00, 0x00, 0x6d, 0x69, 0x6e, 0x5f, 0x72, 0x75, 0x6e, 0x74,
    0x69, 0x6d, 0x65, 0x5f, 0x76, 0x65, 0x72, 0x73, 0x69, 0x6f, 0x6e, 0x00, 0x0d,
    0x00, 0x00, 0x00, 0x18, 0x06, 0x00, 0x00, 0x10, 0x06, 0x00, 0x00, 0xc0, 0x05,
    0x00, 0x00, 0xa4, 0x05, 0x00, 0x00, 0x54, 0x05, 0x00, 0x00, 0x04, 0x05, 0x00,
    0x00, 0xf4, 0x00, 0x00, 0x00, 0xa4, 0x00, 0x00, 0x00, 0x9c, 0x00, 0x00, 0x00,
    0x94, 0x00, 0x00, 0x00, 0x8c, 0x00, 0x00, 0x00, 0x6c, 0x00, 0x00, 0x00, 0x04,
    0x00, 0x00, 0x00, 0x72, 0xfa, 0xff, 0xff, 0x04, 0x00, 0x00, 0x00, 0x58, 0x00,
    0x00, 0x00, 0x0c, 0x00, 0x00, 0x00, 0x08, 0x00, 0x0e, 0x00, 0x08, 0x00, 0x04,
    0x00, 0x08, 0x00, 0x00, 0x00, 0x10, 0x00, 0x00, 0x00, 0x28, 0x00, 0x00, 0x00,
    0x00, 0x00, 0x06, 0x00, 0x08, 0x00, 0x04, 0x00, 0x06, 0x00, 0x00, 0x00, 0x04,
    0x00, 0x00, 0x00, 0x01, 0x00, 0x00, 0x00, 0xea, 0x03, 0x00, 0x00, 0x00, 0x00,
    0x0a, 0x00, 0x10, 0x00, 0x0c, 0x00, 0x08, 0x00, 0x04, 0x00, 0x0a, 0x00, 0x00,
    0x00, 0x02, 0x00, 0x00, 0x00, 0x02, 0x00, 0x00, 0x00, 0x04, 0x00, 0x00, 0x00,
    0x06, 0x00, 0x00, 0x00, 0x32, 0x2e, 0x31, 0x35, 0x2e, 0x30, 0x00, 0x00, 0xd6,
    0xfa, 0xff, 0xff, 0x04, 0x00, 0x00, 0x00, 0x10, 0x00, 0x00, 0x00, 0x31, 0x2e,
    0x35, 0x2e, 0x30, 0x00, 0x00, 0x00, 0x00, 0x00, 0x00, 0x00, 0x00, 0x00, 0x00,
    0x00, 0xc0, 0xf5, 0xff, 0xff, 0xc4, 0xf5, 0xff, 0xff, 0xc8, 0xf5, 0xff, 0xff,
    0xfe, 0xfa, 0xff, 0xff, 0x04, 0x00, 0x00, 0x00, 0x40, 0x00, 0x00, 0x00, 0xac,
    0xe6, 0x23, 0x3f, 0x05, 0x51, 0xd2, 0x3f, 0x96, 0xcb, 0xc1, 0x3f, 0x34, 0xde,
    0x0d, 0x3f, 0xcd, 0xd0, 0x0f, 0xbf, 0x87, 0x3d, 0x7e, 0xbe, 0xf0, 0x09, 0x48,
    0xbf, 0x8f, 0x64, 0xd0, 0xbe, 0x84, 0xba, 0x8b, 0xbe, 0xf8, 0xf2, 0xdf, 0xbe,
    0x45, 0xff, 0x23, 0xbf, 0x66, 0x9a, 0xfc, 0xbe, 0x51, 0x79, 0x22, 0x3d, 0x82,
    0xa2, 0x8b, 0xbf, 0x07, 0x6d, 0x1a, 0x3e, 0x53, 0x16, 0x16, 0x3f, 0x4a, 0xfb,
    0xff, 0xff, 0x04, 0x00, 0x00, 0x00, 0x00, 0x04, 0x00, 0x00, 0x00, 0x07, 0x83,
    0x3d, 0x2c, 0xc1, 0x16, 0x3f, 0xdb, 0x04, 0x59, 0xbe, 0x1d, 0x27, 0xa0, 0x3e,
    0x1c, 0x56, 0x98, 0xbe, 0xc7, 0x66, 0x24, 0x3e, 0x64, 0x19, 0xbe, 0xbe, 0xe4,
    0x7f, 0xfd, 0x3d, 0x40, 0x20, 0x71, 0x3d, 0xc0, 0x90, 0x32, 0xbc, 0xde, 0x79,
    0x33, 0x3e, 0x29, 0x4b, 0xb6, 0x3e, 0x8a, 0x57, 0x42, 0xbd, 0x00, 0x8e, 0x88,
    0xbb, 0x48, 0x9d, 0xc5, 0x3d, 0xee, 0x47, 0x93, 0xbe, 0x2f, 0x46, 0x8d, 0x3e,
    0x1a, 0x5f, 0x47, 0xbf, 0x20, 0xf9, 0xd6, 0xbc, 0xc5, 0xeb, 0xf7, 0xbe, 0x1b,
    0xf5, 0xbc, 0xbe, 0x12, 0xb4, 0xbe, 0xbd, 0xb3, 0x12, 0xdc, 0xbe, 0xf0, 0x0f,
    0xb7, 0xbe, 0x10, 0x69, 0xdd, 0x3e, 0xf2, 0x33, 0x9d, 0xbe, 0xdb, 0xf0, 0xd3,
    0xbe, 0xe0, 0x46, 0x15, 0xbd, 0x4e, 0x9e, 0xd9, 0x3e, 0x7e, 0xa5, 0xd2, 0xbe,
    0xae, 0xcd, 0xe3, 0xbe, 0xa6, 0x26, 0x2d, 0x3e, 0xe8, 0xba, 0x59, 0x3d, 0xc1,
    0xd8, 0x57, 0xbf, 0x80, 0xe0, 0x34, 0xbb, 0x54, 0x59, 0x10, 0x3e, 0xc3, 0xa3,
    0x64, 0xbe, 0xf9, 0xa5, 0x82, 0xbe, 0xf2, 0xc0, 0x18, 0xbe, 0x10, 0xdc, 0x27,
    0x3d, 0xd5, 0x56, 0xa3, 0x3e, 0x7a, 0x82, 0xae, 0xbe, 0xc2, 0xbf, 0x5b, 0x3e,
    0x5b, 0xdb, 0x86, 0x3e, 0xfa, 0xbb, 0x92, 0x3e, 0x7e, 0xa5, 0x3a, 0x3e, 0xdc,
    0x51, 0x15, 0xbf, 0x34, 0xda, 0x9d, 0xbd, 0xe4, 0x67, 0xe3, 0x3d, 0xc2, 0x62,
    0x6b, 0x3e, 0x97, 0x68, 0xc3, 0xbe, 0x08, 0xae, 0x11, 0xbe, 0x40, 0x23, 0x09,
    0xbd, 0x67, 0x5e, 0xae, 0x3e, 0x10, 0xc2, 0xc8, 0xbc, 0x76, 0x2c, 0x8b, 0xbe,
    0x38, 0x97, 0xef, 0xbd, 0xe6, 0xe4, 0xa0, 0xbe, 0x08, 0x8b, 0xc3, 0xbd, 0x00,
    0x58, 0x59, 0xbc, 0x90, 0xbe, 0xa5, 0xbe, 0x16, 0x92, 0xbf, 0xbe, 0x18, 0x62,
    0xa4, 0xbe, 0x36, 0xe4, 0x3b, 0x3e, 0x39, 0xfa, 0x89, 0x3e, 0x6d, 0xb2, 0xa6,
    0xbe, 0xde, 0xbe, 0x35, 0x3e, 0x82, 0x02, 0x80, 0x3e, 0x40, 0x29, 0xb4, 0xbc,
    0x4a, 0xaa, 0x52, 0x3e, 0xfb, 0x74, 0xd2, 0x3e, 0x6e, 0xb6, 0x5a, 0x3e, 0x66,
    0x59, 0xbd, 0x3d, 0xcd, 0xd4, 0xbb, 0xbe, 0x06, 0x2f, 0xa3, 0xbe, 0xb0, 0x86,
    0xd5, 0x3c, 0x77, 0x9d, 0xe1, 0xbd, 0x6e, 0x6e, 0x56, 0x3e, 0xc6, 0x38, 0x4b,
    0xbc, 0x36, 0xc5, 0x33, 0xbe, 0xac, 0xd3, 0xf4, 0x3d, 0xca, 0xa4, 0x83, 0x3e,
    0xe7, 0x95, 0x91, 0x3e, 0x4c, 0xcc, 0x9e, 0x3e, 0xea, 0x31, 0x38, 0x3e, 0x47,
    0x8e, 0x82, 0xbe, 0x78, 0x00, 0xf4, 0xbd, 0x6b, 0x5b, 0x84, 0x3e, 0xe8, 0xb4,
    0x42, 0xbe, 0x2f, 0x8e, 0xc9, 0x3e, 0x3b, 0xa7, 0xbe, 0x3e, 0xb2, 0xf1, 0x52,
    0x3e, 0xd7, 0xa4, 0x9b, 0xbe, 0x99, 0xa3, 0x87, 0x3e, 0xf5, 0xf0, 0x0c, 0xbe,
    0x7c, 0x6c, 0xc8, 0xbe, 0xca, 0xa5, 0x4a, 0x3e, 0x09, 0xcb, 0x3d, 0xbf, 0xb6,
    0x64, 0x0c, 0x3e, 0xfd, 0x78, 0x10, 0x3e, 0x04, 0xa5, 0xc4, 0x3d, 0xf9, 0x39,
    0xba, 0x3e, 0xc0, 0xe9, 0xe9, 0x3c, 0x76, 0xe9, 0x31, 0x3e, 0x82, 0x62, 0xfe,
    0x3e, 0x9e, 0xb5, 0x6c, 0x3e, 0x40, 0x89, 0xb7, 0xbb, 0x00, 0x65, 0xd1, 0xbc,
    0xac, 0xb5, 0x3e, 0xbe, 0x00, 0x39, 0xb9, 0xbe, 0xef, 0x5b, 0xd7, 0xbe, 0x70,
    0xdb, 0xaf, 0x3c, 0x10, 0x5d, 0x7c, 0xbd, 0x61, 0x3c, 0xda, 0xbe, 0x0c, 0x8a,
    0xc6, 0x3d, 0x50, 0x22, 0x67, 0x3d, 0xd3, 0x2f, 0xa7, 0x3e, 0x18, 0xf1, 0x52,
    0xbe, 0x50, 0x90, 0xba, 0xbe, 0x7e, 0x72, 0x9c, 0xbe, 0xb0, 0x9c, 0xc8, 0x3d,
    0x20, 0xe2, 0x66, 0xbd, 0x98, 0xc4, 0x45, 0x3d, 0xb0, 0x6a, 0x30, 0x3d, 0x8a,
    0xfc, 0xa8, 0xbe, 0x2c, 0x8d, 0x15, 0xbe, 0x80, 0x61, 0xbc, 0xbb, 0xdc, 0xd7,
    0xe4, 0x3d, 0x92, 0xd5, 0x94, 0xbe, 0x42, 0x1f, 0x60, 0x3e, 0x7a, 0xbf, 0xa4,
    0xbe, 0x60, 0x23, 0x77, 0xbd, 0x1e, 0xa9, 0x57, 0x3e, 0x4e, 0x96, 0x8b, 0xbe,
    0xe4, 0x8b, 0xcf, 0xbe, 0xba, 0x5c, 0x86, 0xbe, 0x00, 0x11, 0xd8, 0xbb, 0x8f,
    0xc0, 0x8f, 0xbe, 0x00, 0x68, 0x54, 0xbd, 0x84, 0x93, 0x86, 0xbe, 0xed, 0xfe,
    0xd0, 0xbe, 0x52, 0x56, 0x2b, 0x3e, 0xb0, 0x21, 0x80, 0x3d, 0xea, 0x90, 0x2e,
    0x3e, 0xc5, 0xcb, 0xbc, 0x3e, 0x90, 0xc0, 0x13, 0xbf, 0x95, 0x30, 0xd5, 0x3e,
    0x35, 0xd6, 0x68, 0xbd, 0x18, 0x7d, 0xb4, 0xbe, 0xf5, 0xc0, 0x88, 0xbe, 0xbe,
    0xf2, 0xdc, 0xbe, 0x48, 0x70, 0x9b, 0xbe, 0x02, 0x9b, 0x99, 0x3e, 0xd0, 0x06,
    0xa4, 0xbe, 0x48, 0x88, 0x0d, 0xbe, 0xfb, 0xf2, 0xb2, 0x3e, 0xa9, 0x60, 0xc5,
    0x3d, 0x44, 0x22, 0xd3, 0x3d, 0xeb, 0xc4, 0x9a, 0x3e, 0xe8, 0xc7, 0x9d, 0xbd,
    0x60, 0xf5, 0x13, 0x3c, 0x10, 0x23, 0x9b, 0xbc, 0x16, 0x40, 0x23, 0x3e, 0x5f,
    0x94, 0x2b, 0xbf, 0x87, 0xc8, 0x82, 0x3e, 0x7a, 0x11, 0x63, 0xbf, 0xb6, 0xbd,
    0x30, 0xbe, 0x63, 0xef, 0xdc, 0x3e, 0x13, 0x27, 0x72, 0x3e, 0x8b, 0xeb, 0xcc,
    0xbe, 0xc1, 0xab, 0xc2, 0x3e, 0xfd, 0xc5, 0x8d, 0xbe, 0xdc, 0x0d, 0x7c, 0x3e,
    0xe8, 0x21, 0x3a, 0xbe, 0x11, 0xff, 0x82, 0xbf, 0x17, 0x5d, 0x95, 0x3e, 0x80,
    0xdb, 0x8f, 0x3c, 0x06, 0x79, 0xa3, 0x3e, 0x9a, 0xf2, 0xc6, 0xbe, 0xc4, 0xe6,
    0xbf, 0xbe, 0xb4, 0xe2, 0xf7, 0x3d, 0xb0, 0x80, 0x3d, 0xbf, 0xb5, 0xb7, 0xbb,
    0x3e, 0xa4, 0x3c, 0xbd, 0x3d, 0xa6, 0x3e, 0x8b, 0x3e, 0x6b, 0x5f, 0x7f, 0xbe,
    0xd7, 0x2e, 0x5b, 0xbe, 0xa4, 0x2e, 0xf8, 0x3d, 0x38, 0xea, 0xe7, 0xbe, 0xcb,
    0x8d, 0xa8, 0x3e, 0xe2, 0x4c, 0xbf, 0xbe, 0xd6, 0x54, 0x9a, 0xbe, 0xde, 0x99,
    0x32, 0xbe, 0x30, 0x69, 0xb6, 0x3c, 0xf0, 0x8a, 0x8b, 0xbe, 0xc7, 0xe2, 0xe1,
    0xbe, 0xa8, 0xaa, 0x36, 0x3d, 0xb8, 0x6e, 0xb6, 0xbd, 0xd6, 0xf1, 0x1a, 0x3e,
    0x41, 0x04, 0xdd, 0xbe, 0x0a, 0x89, 0x82, 0x3d, 0x8c, 0x91, 0xc7, 0xbd, 0x38,
    0xae, 0xd8, 0xbd, 0x62, 0x12, 0x40, 0x3e, 0xaa, 0xfd, 0x62, 0xbe, 0xf0, 0x25,
    0x80, 0x3c, 0x99, 0x12, 0xd1, 0xbe, 0x52, 0x35, 0x36, 0x3e, 0x39, 0x30, 0xcc,
    0xbe, 0xb7, 0x2b, 0x2c, 0x3e, 0x22, 0x93, 0xb6, 0xbe, 0x59, 0xde, 0x12, 0xbc,
    0x7c, 0x07, 0x0a, 0xbe, 0x8b, 0xc1, 0x0c, 0xbf, 0x34, 0xb8, 0xde, 0x3d, 0x04,
    0xf0, 0xd7, 0x3d, 0xec, 0xfb, 0xa5, 0x3e, 0x80, 0x29, 0xbb, 0xbc, 0x65, 0x30,
    0x9c, 0x3e, 0x82, 0xa2, 0x27, 0xbe, 0xaf, 0xa9, 0xb9, 0xbd, 0x6a, 0x13, 0x59,
    0xbe, 0x69, 0x41, 0x2d, 0xbf, 0xaf, 0xc8, 0xb2, 0xbe, 0xa8, 0xe3, 0x0f, 0xbe,
    0xd8, 0x64, 0x0d, 0xbd, 0xbb, 0x99, 0x81, 0xbe, 0xa9, 0x34, 0x7f, 0xbe, 0x50,
    0x5a, 0xc8, 0xbe, 0xe9, 0x86, 0x23, 0xbe, 0xbb, 0xf0, 0xd2, 0xbe, 0xb0, 0x43,
    0xbb, 0xbe, 0x61, 0xab, 0xe7, 0xbd, 0x42, 0x42, 0xb7, 0xbe, 0x51, 0x6d, 0xd6,
    0xbe, 0xc0, 0x71, 0xac, 0x3b, 0x32, 0xe9, 0x6a, 0x3e, 0xf2, 0x43, 0x13, 0x3e,
    0x2f, 0xaa, 0x60, 0xbe, 0x45, 0x41, 0x90, 0x3e, 0xe8, 0x1f, 0xd1, 0xbd, 0x7c,
    0xff, 0x80, 0x3f, 0x97, 0xb7, 0xd3, 0x3e, 0x14, 0xce, 0x8b, 0x3e, 0xe6, 0xba,
    0x3d, 0xbe, 0x37, 0x05, 0x15, 0xbd, 0xd8, 0x4f, 0x25, 0xbe, 0x06, 0xfd, 0x4c,
    0x3e, 0x1e, 0x84, 0x80, 0xbe, 0x58, 0x3b, 0x83, 0xbe, 0x44, 0x25, 0xc9, 0x3d,
    0x76, 0xb7, 0x30, 0xbe, 0xf6, 0x6d, 0x44, 0x3e, 0xe3, 0xa8, 0xc9, 0x3e, 0x16,
    0x01, 0x37, 0x3e, 0x54, 0xa2, 0xf0, 0x3d, 0x56, 0xff, 0xff, 0xff, 0x04, 0x00,
    0x00, 0x00, 0x40, 0x00, 0x00, 0x00, 0x5a, 0x43, 0x02, 0xbf, 0x3d, 0x4f, 0x9e,
    0x3e, 0x1a, 0xb6, 0xc4, 0xbe, 0xaf, 0x2e, 0xd4, 0x3e, 0x27, 0x99, 0xfa, 0xbe,
    0x63, 0xc6, 0xe0, 0x3e, 0x76, 0xec, 0x53, 0xbe, 0x66, 0x9b, 0x0d, 0xbe, 0xe3,
    0x82, 0xae, 0x3e, 0x7b, 0x3a, 0x89, 0xbe, 0x72, 0x55, 0x96, 0xbe, 0x3c, 0x32,
    0xde, 0xbe, 0x82, 0xac, 0xd9, 0x3e, 0x40, 0xbc, 0x2a, 0xbc, 0x86, 0x1a, 0x1a,
    0x3f, 0x65, 0xc7, 0x08, 0xbf, 0xa2, 0xff, 0xff, 0xff, 0x04, 0x00, 0x00, 0x00,
    0x40, 0x00, 0x00, 0x00, 0x00, 0x00, 0x00, 0x00, 0x51, 0x93, 0x57, 0xbf, 0x00,
    0x00, 0x00, 0x00, 0x06, 0x12, 0x8b, 0xbe, 0x00, 0x00, 0x00, 0x00, 0x6f, 0xf9,
    0x5e, 0x3c, 0x00, 0x00, 0x00, 0x00, 0x00, 0x00, 0x00, 0x00, 0x86, 0xbe, 0x82,
    0x3f, 0x00, 0x00, 0x00, 0x00, 0x00, 0x00, 0x00, 0x00, 0x00, 0x00, 0x00, 0x00,
    0xb2, 0x16, 0x7d, 0x3e, 0x00, 0x00, 0x00, 0x00, 0xfe, 0x30, 0x17, 0xbf, 0x00,
    0x00, 0x00, 0x00, 0xee, 0xff, 0xff, 0xff, 0x04, 0x00, 0x00, 0x00, 0x04, 0x00,
    0x00, 0x00, 0xc7, 0xc4, 0xc8, 0xbe, 0x00, 0x00, 0x06, 0x00, 0x08, 0x00, 0x04,
    0x00, 0x06, 0x00, 0x00, 0x00, 0x04, 0x00, 0x00, 0x00, 0x40, 0x00, 0x00, 0x00,
    0x80, 0x53, 0xd3, 0xbe, 0x52, 0x0b, 0x02, 0x3f, 0xc4, 0xb7, 0xe5, 0x3e, 0x00,
    0x00, 0x00, 0x00, 0xac, 0xc0, 0xb4, 0x3e, 0x48, 0xed, 0xa6, 0xbb, 0x28, 0x81,
    0xde, 0x3e, 0xc5, 0x35, 0xed, 0xbc, 0x00, 0x00, 0x00, 0x00, 0xd5, 0x31, 0xb5,
    0x3e, 0xde, 0x5d, 0xcd, 0x3e, 0x91, 0xca, 0x06, 0x3e, 0x27, 0x19, 0xd7, 0x3c,
    0x8d, 0x58, 0xce, 0x3e, 0xb2, 0x30, 0x2d, 0xbd, 0x6b, 0x8a, 0x43, 0xbf, 0x20,
    0xfb, 0xff, 0xff, 0x24, 0xfb, 0xff, 0xff, 0x0f, 0x00, 0x00, 0x00, 0x4d, 0x4c,
    0x49, 0x52, 0x20, 0x43, 0x6f, 0x6e, 0x76, 0x65, 0x72, 0x74, 0x65, 0x64, 0x2e,
    0x00, 0x01, 0x00, 0x00, 0x00, 0x14, 0x00, 0x00, 0x00, 0x00, 0x00, 0x0e, 0x00,
    0x18, 0x00, 0x14, 0x00, 0x10, 0x00, 0x0c, 0x00, 0x08, 0x00, 0x04, 0x00, 0x0e,
    0x00, 0x00, 0x00, 0x14, 0x00, 0x00, 0x00, 0x1c, 0x00, 0x00, 0x00, 0xd8, 0x00,
    0x00, 0x00, 0xdc, 0x00, 0x00, 0x00, 0xe0, 0x00, 0x00, 0x00, 0x04, 0x00, 0x00,
    0x00, 0x6d, 0x61, 0x69, 0x6e, 0x00, 0x00, 0x00, 0x00, 0x03, 0x00, 0x00, 0x00,
    0x80, 0x00, 0x00, 0x00, 0x38, 0x00, 0x00, 0x00, 0x04, 0x00, 0x00, 0x00, 0x9a,
    0xff, 0xff, 0xff, 0x10, 0x00, 0x00, 0x00, 0x00, 0x00, 0x00, 0x08, 0x0c, 0x00,
    0x00, 0x00, 0x10, 0x00, 0x00, 0x00, 0x9c, 0xfb, 0xff, 0xff, 0x01, 0x00, 0x00,
    0x00, 0x09, 0x00, 0x00, 0x00, 0x03, 0x00, 0x00, 0x00, 0x08, 0x00, 0x00, 0x00,
    0x06, 0x00, 0x00, 0x00, 0x02, 0x00, 0x00, 0x00, 0xca, 0xff, 0xff, 0xff, 0x10,
    0x00, 0x00, 0x00, 0x00, 0x00, 0x00, 0x08, 0x10, 0x00, 0x00, 0x00, 0x14, 0x00,
    0x00, 0x00, 0xba, 0xff, 0xff, 0xff, 0x00, 0x00, 0x00, 0x01, 0x01, 0x00, 0x00,
    0x00, 0x08, 0x00, 0x00, 0x00, 0x03, 0x00, 0x00, 0x00, 0x07, 0x00, 0x00, 0x00,
    0x05, 0x00, 0x00, 0x00, 0x01, 0x00, 0x00, 0x00, 0x00, 0x00, 0x0e, 0x00, 0x16,
    0x00, 0x00, 0x00, 0x10, 0x00, 0x0c, 0x00, 0x0b, 0x00, 0x04, 0x00, 0x0e, 0x00,
    0x00, 0x00, 0x18, 0x00, 0x00, 0x00, 0x00, 0x00, 0x00, 0x08, 0x18, 0x00, 0x00,
    0x00, 0x1c, 0x00, 0x00, 0x00, 0x00, 0x00, 0x06, 0x00, 0x08, 0x00, 0x07, 0x00,
    0x06, 0x00, 0x00, 0x00, 0x00, 0x00, 0x00, 0x01, 0x01, 0x00, 0x00, 0x00, 0x07,
    0x00, 0x00, 0x00, 0x03, 0x00, 0x00, 0x00, 0x00, 0x00, 0x00, 0x00, 0x04, 0x00,
    0x00, 0x00, 0x03, 0x00, 0x00, 0x00, 0x01, 0x00, 0x00, 0x00, 0x09, 0x00, 0x00,
    0x00, 0x01, 0x00, 0x00, 0x00, 0x00, 0x00, 0x00, 0x00, 0x0a, 0x00, 0x00, 0x00,
    0x8c, 0x03, 0x00, 0x00, 0x1c, 0x03, 0x00, 0x00, 0xac, 0x02, 0x00, 0x00, 0x58,
    0x02, 0x00, 0x00, 0x10, 0x02, 0x00, 0x00, 0xc4, 0x01, 0x00, 0x00, 0x78, 0x01,
    0x00, 0x00, 0xf0, 0x00, 0x00, 0x00, 0x60, 0x00, 0x00, 0x00, 0x04, 0x00, 0x00,
    0x00, 0xb2, 0xfc, 0xff, 0xff, 0x00, 0x00, 0x00, 0x01, 0x14, 0x00, 0x00, 0x00,
    0x1c, 0x00, 0x00, 0x00, 0x1c, 0x00, 0x00, 0x00, 0x0a, 0x00, 0x00, 0x00, 0x34,
    0x00, 0x00, 0x00, 0x02, 0x00, 0x00, 0x00, 0xff, 0xff, 0xff, 0xff, 0x01, 0x00,
    0x00, 0x00, 0x9c, 0xfc, 0xff, 0xff, 0x19, 0x00, 0x00, 0x00, 0x53, 0x74, 0x61,
    0x74, 0x65, 0x66, 0x75, 0x6c, 0x50, 0x61, 0x72, 0x74, 0x69, 0x74, 0x69, 0x6f,
    0x6e, 0x65, 0x64, 0x43, 0x61, 0x6c, 0x6c, 0x3a, 0x30, 0x00, 0x00, 0x00, 0x02,
    0x00, 0x00, 0x00, 0x01, 0x00, 0x00, 0x00, 0x01, 0x00, 0x00, 0x00, 0x0a, 0xfd,
    0xff, 0xff, 0x00, 0x00, 0x00, 0x01, 0x14, 0x00, 0x00, 0x00, 0x1c, 0x00, 0x00,
    0x00, 0x1c, 0x00, 0x00, 0x00, 0x09, 0x00, 0x00, 0x00, 0x68, 0x00, 0x00, 0x00,
    0x02, 0x00, 0x00, 0x00, 0xff, 0xff, 0xff, 0xff, 0x10, 0x00, 0x00, 0x00, 0xf4,
    0xfc, 0xff, 0xff, 0x4c, 0x00, 0x00, 0x00, 0x73, 0x65, 0x71, 0x75, 0x65, 0x6e,
    0x74, 0x69, 0x61, 0x6c, 0x2f, 0x64, 0x65, 0x6e, 0x73, 0x65, 0x5f, 0x31, 0x2f,
    0x4d, 0x61, 0x74, 0x4d, 0x75, 0x6c, 0x3b, 0x73, 0x65, 0x71, 0x75, 0x65, 0x6e,
    0x74, 0x69, 0x61, 0x6c, 0x2f, 0x64, 0x65, 0x6e, 0x73, 0x65, 0x5f, 0x31, 0x2f,
    0x52, 0x65, 0x6c, 0x75, 0x3b, 0x73, 0x65, 0x71, 0x75, 0x65, 0x6e, 0x74, 0x69,
    0x61, 0x6c, 0x2f, 0x64, 0x65, 0x6e, 0x73, 0x65, 0x5f, 0x31, 0x2f, 0x42, 0x69,
    0x61, 0x73, 0x41, 0x64, 0x64, 0x00, 0x00, 0x00, 0x00, 0x02, 0x00, 0x00, 0x00,
    0x01, 0x00, 0x00, 0x00, 0x10, 0x00, 0x00, 0x00, 0x96, 0xfd, 0xff, 0xff, 0x00,
    0x00, 0x00, 0x01, 0x14, 0x00, 0x00, 0x00, 0x1c, 0x00, 0x00, 0x00, 0x1c, 0x00,
    0x00, 0x00, 0x08, 0x00, 0x00, 0x00, 0x60, 0x00, 0x00, 0x00, 0x02, 0x00, 0x00,
    0x00, 0xff, 0xff, 0xff, 0xff, 0x10, 0x00, 0x00, 0x00, 0x80, 0xfd, 0xff, 0xff,
    0x46, 0x00, 0x00, 0x00, 0x73, 0x65, 0x71, 0x75, 0x65, 0x6e, 0x74, 0x69, 0x61,
    0x6c, 0x2f, 0x64, 0x65, 0x6e, 0x73, 0x65, 0x2f, 0x4d, 0x61, 0x74, 0x4d, 0x75,
    0x6c, 0x3b, 0x73, 0x65, 0x71, 0x75, 0x65, 0x6e, 0x74, 0x69, 0x61, 0x6c, 0x2f,
    0x64, 0x65, 0x6e, 0x73, 0x65, 0x2f, 0x52, 0x65, 0x6c, 0x75, 0x3b, 0x73, 0x65,
    0x71, 0x75, 0x65, 0x6e, 0x74, 0x69, 0x61, 0x6c, 0x2f, 0x64, 0x65, 0x6e, 0x73,
    0x65, 0x2f, 0x42, 0x69, 0x61, 0x73, 0x41, 0x64, 0x64, 0x00, 0x00, 0x02, 0x00,
    0x00, 0x00, 0x01, 0x00, 0x00, 0x00, 0x10, 0x00, 0x00, 0x00, 0x86, 0xfe, 0xff,
    0xff, 0x00, 0x00, 0x00, 0x01, 0x10, 0x00, 0x00, 0x00, 0x10, 0x00, 0x00, 0x00,
    0x07, 0x00, 0x00, 0x00, 0x28, 0x00, 0x00, 0x00, 0xf4, 0xfd, 0xff, 0xff, 0x19,
    0x00, 0x00, 0x00, 0x73, 0x65, 0x71, 0x75, 0x65, 0x6e, 0x74, 0x69, 0x61, 0x6c,
    0x2f, 0x64, 0x65, 0x6e, 0x73, 0x65, 0x5f, 0x32, 0x2f, 0x4d, 0x61, 0x74, 0x4d,
    0x75, 0x6c, 0x00, 0x00, 0x00, 0x02, 0x00, 0x00, 0x00, 0x01, 0x00, 0x00, 0x00,
    0x10, 0x00, 0x00, 0x00, 0xce, 0xfe, 0xff, 0xff, 0x00, 0x00, 0x00, 0x01, 0x10,
    0x00, 0x00, 0x00, 0x10, 0x00, 0x00, 0x00, 0x06, 0x00, 0x00, 0x00, 0x28, 0x00,
    0x00, 0x00, 0x3c, 0xfe, 0xff, 0xff, 0x19, 0x00, 0x00, 0x00, 0x73, 0x65, 0x71,
    0x75, 0x65, 0x6e, 0x74, 0x69, 0x61, 0x6c, 0x2f, 0x64, 0x65, 0x6e, 0x73, 0x65,
    0x5f, 0x31, 0x2f, 0x4d, 0x61, 0x74, 0x4d, 0x75, 0x6c, 0x00, 0x00, 0x00, 0x02,
    0x00, 0x00, 0x00, 0x10, 0x00, 0x00, 0x00, 0x10, 0x00, 0x00, 0x00, 0x16, 0xff,
    0xff, 0xff, 0x00, 0x00, 0x00, 0x01, 0x10, 0x00, 0x00, 0x00, 0x10, 0x00, 0x00,
    0x00, 0x05, 0x00, 0x00, 0x00, 0x24, 0x00, 0x00, 0x00, 0x84, 0xfe, 0xff, 0xff,
    0x17, 0x00, 0x00, 0x00, 0x73, 0x65, 0x71, 0x75, 0x65, 0x6e, 0x74, 0x69, 0x61,
    0x6c, 0x2f, 0x64, 0x65, 0x6e, 0x73, 0x65, 0x2f, 0x4d, 0x61, 0x74, 0x4d, 0x75,
    0x6c, 0x00, 0x02, 0x00, 0x00, 0x00, 0x10, 0x00, 0x00, 0x00, 0x01, 0x00, 0x00,
    0x00, 0x5a, 0xff, 0xff, 0xff, 0x00, 0x00, 0x00, 0x01, 0x10, 0x00, 0x00, 0x00,
    0x10, 0x00, 0x00, 0x00, 0x04, 0x00, 0x00, 0x00, 0x34, 0x00, 0x00, 0x00, 0xc8,
    0xfe, 0xff, 0xff, 0x27, 0x00, 0x00, 0x00, 0x73, 0x65, 0x71, 0x75, 0x65, 0x6e,
    0x74, 0x69, 0x61, 0x6c, 0x2f, 0x64, 0x65, 0x6e, 0x73, 0x65, 0x2f, 0x42, 0x69,
    0x61, 0x73, 0x41, 0x64, 0x64, 0x2f, 0x52, 0x65, 0x61, 0x64, 0x56, 0x61, 0x72,
    0x69, 0x61, 0x62, 0x6c, 0x65, 0x4f, 0x70, 0x00, 0x01, 0x00, 0x00, 0x00, 0x10,
    0x00, 0x00, 0x00, 0xaa, 0xff, 0xff, 0xff, 0x00, 0x00, 0x00, 0x01, 0x10, 0x00,
    0x00, 0x00, 0x10, 0x00, 0x00, 0x00, 0x03, 0x00, 0x00, 0x00, 0x38, 0x00, 0x00,
    0x00, 0x18, 0xff, 0xff, 0xff, 0x29, 0x00, 0x00, 0x00, 0x73, 0x65, 0x71, 0x75,
    0x65, 0x6e, 0x74, 0x69, 0x61, 0x6c, 0x2f, 0x64, 0x65, 0x6e, 0x73, 0x65, 0x5f,
    0x32, 0x2f, 0x42, 0x69, 0x61, 0x73, 0x41, 0x64, 0x64, 0x2f, 0x52, 0x65, 0x61,
    0x64, 0x56, 0x61, 0x72, 0x69, 0x61, 0x62, 0x6c, 0x65, 0x4f, 0x70, 0x00, 0x00,
    0x00, 0x01, 0x00, 0x00, 0x00, 0x01, 0x00, 0x00, 0x00, 0x00, 0x00, 0x16, 0x00,
    0x18, 0x00, 0x14, 0x00, 0x00, 0x00, 0x10, 0x00, 0x0c, 0x00, 0x08, 0x00, 0x00,
    0x00, 0x00, 0x00, 0x00, 0x00, 0x07, 0x00, 0x16, 0x00, 0x00, 0x00, 0x00, 0x00,
    0x00, 0x01, 0x10, 0x00, 0x00, 0x00, 0x10, 0x00, 0x00, 0x00, 0x02, 0x00, 0x00,
    0x00, 0x38, 0x00, 0x00, 0x00, 0x84, 0xff, 0xff, 0xff, 0x29, 0x00, 0x00, 0x00,
    0x73, 0x65, 0x71, 0x75, 0x65, 0x6e, 0x74, 0x69, 0x61, 0x6c, 0x2f, 0x64, 0x65,
    0x6e, 0x73, 0x65, 0x5f, 0x31, 0x2f, 0x42, 0x69, 0x61, 0x73, 0x41, 0x64, 0x64,
    0x2f, 0x52, 0x65, 0x61, 0x64, 0x56, 0x61, 0x72, 0x69, 0x61, 0x62, 0x6c, 0x65,
    0x4f, 0x70, 0x00, 0x00, 0x00, 0x01, 0x00, 0x00, 0x00, 0x10, 0x00, 0x00, 0x00,
    0x00, 0x00, 0x16, 0x00, 0x1c, 0x00, 0x18, 0x00, 0x00, 0x00, 0x14, 0x00, 0x10,
    0x00, 0x0c, 0x00, 0x00, 0x00, 0x00, 0x00, 0x08, 0x00, 0x07, 0x00, 0x16, 0x00,
    0x00, 0x00, 0x00, 0x00, 0x00, 0x01, 0x14, 0x00, 0x00, 0x00, 0x20, 0x00, 0x00,
    0x00, 0x20, 0x00, 0x00, 0x00, 0x01, 0x00, 0x00, 0x00, 0x3c, 0x00, 0x00, 0x00,
    0x02, 0x00, 0x00, 0x00, 0xff, 0xff, 0xff, 0xff, 0x01, 0x00, 0x00, 0x00, 0x04,
    0x00, 0x04, 0x00, 0x04, 0x00, 0x00, 0x00, 0x1d, 0x00, 0x00, 0x00, 0x73, 0x65,
    0x72, 0x76, 0x69, 0x6e, 0x67, 0x5f, 0x64, 0x65, 0x66, 0x61, 0x75, 0x6c, 0x74,
    0x5f, 0x64, 0x65, 0x6e, 0x73, 0x65, 0x5f, 0x69, 0x6e, 0x70, 0x75, 0x74, 0x3a,
    0x30, 0x00, 0x00, 0x00, 0x02, 0x00, 0x00, 0x00, 0x01, 0x00, 0x00, 0x00, 0x01,
    0x00, 0x00, 0x00, 0x01, 0x00, 0x00, 0x00, 0x10, 0x00, 0x00, 0x00, 0x0c, 0x00,
    0x0c, 0x00, 0x0b, 0x00, 0x00, 0x00, 0x00, 0x00, 0x04, 0x00, 0x0c, 0x00, 0x00,
    0x00, 0x09, 0x00, 0x00, 0x00, 0x00, 0x00, 0x00, 0x09,
};
const int sine_model_len = 3168;
